{"itos": ["<pad>", "<bos>", "<eos>", "<unk>", "\n", " ", "!", "\"", "$", "%", "'", "(", ")", "*", "+", ",", "-", ".", "/", "0", "1", "2", "3", "4", "5", "6", "7", "8", "9", ":", ";", "=", ">", "?", "@", "K", "Q", "S", "[", "\\", "^", "`", "a", "b", "c", "d", "e", "f", "g", "h", "i", "j", "k", "l", "m", "n", "o", "p", "q", "r", "s", "t", "u", "v", "w", "x", "y", "z", "~", "·", "×", "á", "é", "ü", "ā", "ǎ", "ǔ", "—", "‘", "’", "“", "”", "…", "Ⅱ", "─", "□", "○", "　", "、", "。", "〇", "〈", "〉", "《", "》", "【", "】", "〔", "〕", "一", "丁", "七", "万", "丈", "三", "上", "下", "不", "与", "丐", "丑", "专", "且", "丕", "世", "丘", "丙", "业", "丛", "东", "丝", "丞", "丢", "两", "严", "丧", "个", "丫", "中", "丰", "串", "临", "丸", "丹", "为", "主", "丽", "举", "乃", "久", "么", "义", "之", "乌", "乎", "乏", "乐", "乔", "乖", "乘", "乙", "九", "乞", "也", "习", "乡", "书", "乩", "买", "乱", "乳", "乾", "了", "予", "争", "事", "二", "于", "亏", "云", "互", "五", "井", "亘", "亚", "些", "亡", "亢", "交", "亥", "亦", "产", "亨", "亩", "享", "京", "亭", "亮", "亲", "亳", "亵", "人", "亿", "什", "仁", "仃", "仄", "仅", "仆", "仇", "今", "介", "仍", "从", "仑", "仓", "仔", "仕", "他", "仗", "付", "仙", "代", "令", "以", "仪", "们", "仰", "仲", "仵", "件", "价", "任", "份", "仿", "企", "伊", "伍", "伎", "伏", "伐", "休", "众", "优", "伙", "会", "伞", "伟", "传", "伤", "伥", "伦", "伪", "伯", "估", "伴", "伶", "伸", "伺", "似", "伽", "佃", "但", "位", "低", "住", "佐", "佑", "体", "何", "余", "佚", "佛", "作", "佞", "你", "佣", "佥", "佩", "佬", "佯", "佳", "佻", "佾", "使", "侃", "侄", "侈", "侉", "例", "侍", "侏", "侑", "供", "依", "侠", "侣", "侥", "侦", "侧", "侨", "侩", "侪", "侮", "侯", "侵", "侻", "便", "促", "俄", "俊", "俏", "俐", "俗", "俘", "俚", "保", "俞", "俟", "信", "俨", "俩", "俪", "俭", "修", "俯", "俱", "俳", "俶", "俸", "俺", "倌", "倍", "倏", "倒", "倔", "倘", "候", "倚", "倜", "借", "倡", "倦", "倪", "倭", "债", "值", "倾", "偃", "假", "偈", "偌", "偎", "偏", "偕", "做", "停", "健", "偶", "偷", "偿", "傀", "傅", "傍", "傥", "傧", "储", "催", "傲", "傻", "僇", "像", "僚", "僧", "僭", "僵", "僻", "儀", "儆", "儇", "儒", "儡", "儿", "兀", "允", "元", "兄", "充", "兆", "先", "光", "克", "免", "兑", "兔", "兕", "党", "兜", "兢", "入", "全", "八", "公", "六", "兮", "兰", "共", "关", "兴", "兵", "其", "具", "典", "兹", "养", "兼", "兽", "冀", "内", "冈", "冉", "册", "再", "冒", "冕", "写", "军", "农", "冠", "冢", "冤", "冥", "冬", "冯", "冰", "冲", "决", "况", "冶", "冷", "冻", "冽", "净", "凄", "准", "凉", "凋", "凌", "减", "凑", "凛", "凝", "几", "凡", "凤", "凫", "凭", "凯", "凰", "凳", "凶", "凸", "凹", "出", "击", "函", "凿", "刀", "刁", "刃", "分", "切", "刈", "刊", "刍", "刎", "刑", "划", "列", "刘", "则", "刚", "创", "初", "删", "判", "利", "别", "刮", "到", "刳", "制", "刷", "券", "刹", "刺", "刻", "刽", "剂", "剃", "削", "剌", "前", "剐", "剑", "剔", "剖", "剥", "剧", "剩", "剪", "副", "割", "剽", "剿", "劈", "力", "劝", "办", "功", "加", "务", "劣", "动", "助", "努", "劫", "励", "劲", "劳", "劼", "劾", "势", "勃", "勇", "勉", "勋", "勒", "勘", "募", "勤", "勰", "勺", "勾", "勿", "匀", "包", "匆", "匈", "匏", "匕", "化", "北", "匝", "匠", "匡", "匣", "匪", "匹", "区", "医", "匾", "匿", "十", "千", "卅", "升", "午", "卉", "半", "卌", "华", "协", "卑", "卒", "卓", "单", "卖", "南", "博", "卜", "卞", "占", "卡", "卢", "卤", "卦", "卧", "卫", "卮", "卯", "印", "危", "即", "却", "卵", "卷", "卸", "卿", "厂", "厄", "厅", "历", "厉", "压", "厌", "厕", "厘", "厚", "厝", "原", "厢", "厥", "厦", "厨", "厮", "去", "县", "参", "又", "叉", "及", "友", "双", "反", "发", "叔", "取", "受", "变", "叙", "叛", "叠", "口", "古", "句", "另", "叨", "叩", "只", "叫", "召", "叭", "叮", "可", "台", "叱", "史", "右", "叵", "叶", "号", "司", "叹", "叽", "吁", "吃", "各", "吆", "合", "吉", "吊", "同", "名", "后", "吏", "吐", "向", "吓", "吕", "吗", "君", "吝", "吞", "吟", "吠", "吡", "否", "吧", "吩", "含", "听", "吮", "启", "吱", "吴", "吵", "吸", "吹", "吻", "吼", "吽", "吾", "呀", "呃", "呆", "呈", "告", "呐", "呓", "呔", "呕", "员", "呜", "呢", "周", "味", "呵", "呷", "呸", "呻", "呼", "命", "咀", "咂", "咄", "咆", "咋", "和", "咎", "咏", "咐", "咒", "咕", "咙", "咚", "咤", "咧", "咬", "咯", "咱", "咳", "咸", "咻", "咽", "咿", "哀", "品", "哂", "哄", "哇", "哈", "哉", "响", "哑", "哗", "哙", "哝", "哟", "哥", "哦", "哨", "哩", "哪", "哭", "哮", "哲", "哺", "哼", "唁", "唆", "唇", "唉", "唏", "唐", "唔", "唠", "唤", "唧", "唬", "售", "唯", "唱", "唳", "唵", "唷", "唾", "啃", "啄", "商", "啊", "啌", "啕", "啘", "啥", "啦", "啧", "啪", "啬", "啮", "啷", "啸", "啼", "啾", "喀", "喂", "喃", "善", "喇", "喉", "喊", "喋", "喘", "喙", "喜", "喝", "喟", "喤", "喧", "喳", "喷", "喻", "嗄", "嗅", "嗐", "嗑", "嗔", "嗜", "嗟", "嗡", "嗣", "嗤", "嗥", "嗬", "嗯", "嗳", "嗽", "嗾", "嘈", "嘉", "嘎", "嘘", "嘛", "嘬", "嘱", "嘲", "嘴", "嘶", "嘻", "嘿", "噉", "噜", "噤", "器", "噩", "噪", "噫", "噬", "噶", "嚄", "嚎", "嚏", "嚓", "嚣", "嚯", "嚷", "嚼", "囊", "囚", "四", "回", "囟", "因", "囡", "团", "园", "困", "囱", "围", "固", "国", "图", "囿", "圃", "圆", "圈", "圉", "圜", "土", "圣", "在", "圭", "地", "圹", "场", "圻", "圾", "址", "坂", "均", "坊", "坍", "坎", "坏", "坐", "坑", "块", "坚", "坛", "坟", "坠", "坡", "坤", "坦", "坳", "坼", "垂", "垃", "垄", "型", "垒", "垢", "垣", "垫", "埃", "埋", "城", "埔", "域", "埠", "培", "基", "堂", "堆", "堑", "堕", "堞", "堡", "堤", "堪", "堵", "塌", "塍", "塑", "塔", "塘", "塞", "填", "塾", "墀", "境", "墓", "墙", "增", "墟", "墨", "墩", "壁", "壑", "壕", "壤", "士", "壬", "壮", "声", "壳", "壶", "壹", "处", "备", "复", "夏", "夕", "外", "夙", "多", "夜", "够", "大", "天", "太", "夫", "夭", "央", "失", "头", "夷", "夸", "夹", "夺", "奁", "奄", "奇", "奈", "奉", "奋", "奎", "奏", "契", "奔", "奕", "奖", "套", "奚", "奠", "奢", "奥", "女", "奴", "奶", "奸", "她", "好", "妁", "如", "妃", "妄", "妆", "妇", "妈", "妍", "妒", "妓", "妖", "妙", "妣", "妥", "妨", "妪", "妲", "妹", "妻", "妾", "姆", "姊", "始", "姐", "姑", "姒", "姓", "委", "姘", "姚", "姜", "姣", "姥", "姨", "姬", "姻", "姿", "威", "娃", "娄", "娇", "娓", "娖", "娘", "娜", "娥", "娱", "娲", "娵", "娶", "娼", "婆", "婉", "婊", "婚", "婢", "婪", "婴", "婶", "婿", "媒", "媚", "媲", "媳", "嫁", "嫂", "嫉", "嫌", "嫖", "嫚", "嫡", "嫣", "嫦", "嫩", "嬉", "孀", "子", "孑", "孔", "孕", "字", "存", "孙", "孚", "孛", "孝", "孟", "季", "孤", "学", "孩", "孪", "孰", "孱", "孳", "孵", "孺", "孽", "宀", "宁", "它", "宅", "宇", "守", "安", "宋", "完", "宏", "宓", "宕", "宗", "官", "宙", "定", "宛", "宜", "宝", "实", "宠", "审", "客", "宣", "室", "宦", "宪", "宫", "宰", "害", "宴", "宵", "家", "容", "宽", "宾", "宿", "寂", "寄", "寅", "密", "寇", "富", "寒", "寓", "寝", "寞", "察", "寡", "寥", "寨", "寸", "对", "寺", "寻", "导", "寿", "封", "射", "将", "尉", "尊", "小", "少", "尔", "尖", "尘", "尚", "尝", "尟", "尤", "尧", "就", "尸", "尹", "尺", "尻", "尼", "尽", "尾", "尿", "局", "屁", "层", "居", "屈", "屉", "届", "屋", "屏", "屐", "屑", "展", "属", "屠", "屡", "屣", "履", "屦", "屯", "山", "屹", "屺", "屿", "岁", "岂", "岌", "岐", "岑", "岔", "岗", "岚", "岛", "岩", "岭", "岱", "岳", "岸", "峙", "峚", "峤", "峨", "峭", "峰", "峻", "崇", "崔", "崖", "崩", "崭", "崽", "嵇", "嵌", "嵎", "嵩", "嶷", "巅", "巍", "川", "州", "巡", "巢", "工", "左", "巧", "巨", "巫", "差", "己", "已", "巴", "巷", "巾", "币", "市", "布", "帅", "帆", "师", "希", "帏", "帐", "帑", "帕", "帖", "帘", "帙", "帛", "帜", "帝", "带", "席", "帮", "常", "帽", "幅", "幌", "幔", "幕", "幡", "幢", "干", "平", "年", "并", "幸", "幺", "幻", "幼", "幽", "广", "庄", "庆", "庇", "床", "序", "庐", "库", "应", "底", "庖", "店", "庙", "庚", "府", "庞", "废", "度", "座", "庭", "庯", "庵", "庶", "康", "庸", "庾", "廉", "廊", "廓", "廖", "廨", "廪", "延", "廷", "建", "廿", "开", "弁", "异", "弃", "弄", "弊", "式", "弑", "弓", "引", "弗", "弘", "弛", "弟", "张", "弢", "弥", "弦", "弧", "弩", "弯", "弱", "弶", "弹", "强", "弼", "归", "当", "录", "彗", "形", "彤", "彦", "彩", "彪", "彬", "彭", "彰", "影", "彷", "役", "彻", "彼", "往", "征", "径", "待", "徇", "很", "徊", "律", "徐", "徒", "得", "徘", "徙", "御", "徨", "循", "微", "德", "徽", "心", "必", "忆", "忌", "忍", "忏", "忐", "忑", "忒", "志", "忘", "忙", "忠", "忡", "忤", "忧", "忪", "快", "忮", "忱", "念", "忸", "忽", "忾", "忿", "怀", "态", "怂", "怃", "怅", "怆", "怎", "怏", "怒", "怔", "怕", "怖", "怜", "思", "怠", "怡", "急", "怦", "性", "怨", "怩", "怪", "怯", "怵", "总", "恃", "恋", "恍", "恐", "恒", "恕", "恙", "恢", "恣", "恤", "恧", "恨", "恩", "恫", "恭", "息", "恰", "恳", "恶", "恸", "恹", "恺", "恻", "恼", "恿", "悄", "悉", "悌", "悍", "悔", "悖", "悚", "悟", "悠", "患", "悦", "您", "悬", "悯", "悲", "悴", "悼", "情", "惆", "惊", "惋", "惑", "惘", "惜", "惝", "惟", "惠", "惦", "惧", "惨", "惩", "惫", "惭", "惮", "惯", "惰", "想", "惴", "惶", "惹", "惺", "愁", "愆", "愈", "愉", "意", "愕", "愚", "感", "愣", "愤", "愧", "愿", "慈", "慌", "慎", "慑", "慕", "慢", "慧", "慨", "慰", "慷", "憎", "憔", "憧", "憩", "憾", "懂", "懈", "懊", "懋", "懑", "懒", "懦", "懵", "懿", "戈", "戊", "戌", "戍", "戏", "成", "我", "戒", "戕", "或", "战", "戚", "戟", "戡", "截", "戮", "戳", "戴", "户", "房", "所", "扁", "扇", "扈", "手", "才", "扎", "扑", "扒", "打", "扔", "托", "扛", "扣", "执", "扩", "扫", "扬", "扭", "扮", "扯", "扰", "扳", "扶", "批", "扼", "找", "承", "技", "抄", "抉", "把", "抑", "抒", "抓", "投", "抖", "抗", "折", "抚", "抛", "抟", "抡", "抢", "护", "报", "抨", "披", "抬", "抱", "抵", "抹", "押", "抽", "抿", "拂", "拄", "担", "拆", "拇", "拈", "拉", "拌", "拍", "拐", "拒", "拓", "拔", "拖", "拗", "拘", "拙", "拚", "招", "拜", "拟", "拢", "拣", "拥", "拦", "拧", "拨", "择", "括", "拭", "拮", "拱", "拳", "拴", "拷", "拼", "拾", "拿", "持", "挂", "指", "挈", "按", "挑", "挖", "挚", "挛", "挞", "挟", "挠", "挡", "挣", "挤", "挥", "挦", "挨", "挪", "挫", "振", "挲", "挹", "挺", "挽", "捆", "捉", "捋", "捎", "捏", "捐", "捕", "捞", "损", "捡", "换", "捣", "捧", "据", "捶", "捷", "捺", "捻", "掀", "掂", "掇", "授", "掉", "掊", "掌", "掏", "掐", "排", "掘", "掠", "探", "掣", "接", "控", "推", "掩", "措", "掬", "掳", "掷", "掺", "揄", "揆", "揉", "揎", "描", "提", "插", "揖", "握", "揣", "揩", "揪", "揭", "揳", "援", "揸", "揽", "搀", "搁", "搂", "搅", "搏", "搔", "搜", "搞", "搡", "搬", "搭", "携", "搽", "摄", "摆", "摇", "摈", "摊", "摔", "摘", "摧", "摩", "摭", "摸", "摹", "撄", "撅", "撇", "撑", "撒", "撕", "撞", "撤", "撦", "撩", "播", "撮", "撰", "撷", "撺", "撼", "擂", "擅", "操", "擎", "擒", "擦", "攀", "攒", "攘", "攫", "支", "收", "改", "攻", "放", "政", "故", "效", "敌", "敏", "救", "敕", "敖", "教", "敛", "敝", "敞", "敡", "敢", "散", "敦", "敬", "数", "敲", "整", "敷", "文", "斋", "斐", "斑", "斓", "斗", "料", "斛", "斜", "斟", "斡", "斤", "斥", "斧", "斩", "斫", "断", "斮", "斯", "新", "方", "於", "施", "旁", "旃", "旅", "旋", "旌", "族", "旒", "旗", "无", "既", "日", "旦", "旧", "旨", "早", "旬", "旱", "时", "旷", "旺", "旻", "昂", "昆", "昊", "昌", "明", "昏", "易", "昔", "昕", "昙", "星", "映", "春", "昧", "昨", "昭", "是", "昶", "昼", "显", "晃", "晋", "晌", "晏", "晒", "晓", "晕", "晖", "晚", "晤", "晦", "晨", "普", "景", "晰", "晴", "晶", "智", "暂", "暄", "暇", "暑", "暖", "暗", "暤", "暨", "暮", "暴", "暹", "暾", "曌", "曙", "曩", "曰", "曲", "曳", "更", "曹", "曼", "曾", "替", "最", "月", "有", "朋", "服", "朔", "朕", "朗", "望", "朝", "期", "朦", "木", "未", "末", "本", "札", "术", "朱", "朴", "朵", "机", "朽", "杀", "杂", "权", "杆", "杉", "杌", "李", "杏", "材", "村", "杖", "杜", "杞", "束", "杠", "条", "来", "杨", "杭", "杯", "杰", "杳", "杵", "松", "板", "极", "构", "枉", "析", "枕", "林", "枚", "果", "枝", "枢", "枣", "枪", "枫", "枭", "枯", "架", "枷", "柄", "柏", "某", "染", "柔", "柙", "柚", "柜", "柢", "查", "柩", "柬", "柯", "柱", "柳", "柴", "柿", "栀", "栅", "标", "栈", "栊", "栏", "树", "栓", "栖", "栗", "校", "栩", "株", "样", "核", "根", "栻", "格", "栽", "桀", "桂", "桃", "桅", "案", "桌", "桎", "桐", "桑", "桓", "桔", "桕", "桠", "桢", "桥", "桦", "桧", "桨", "桩", "桴", "桶", "梁", "梅", "梏", "梓", "梗", "梢", "梦", "梧", "梭", "梯", "械", "梳", "梵", "梼", "检", "棂", "棉", "棋", "棍", "棒", "棘", "棚", "棠", "棣", "森", "棱", "棹", "棺", "椅", "植", "椎", "椒", "椠", "椭", "椹", "椽", "楚", "楞", "楠", "楣", "楫", "楷", "楸", "楹", "楼", "概", "榄", "榆", "榇", "榔", "榜", "榨", "榴", "榷", "榻", "槃", "槐", "槛", "槟", "槲", "樊", "模", "横", "樱", "樵", "橄", "橐", "橘", "橙", "橡", "橱", "橹", "檀", "檄", "檐", "檠", "欠", "次", "欢", "欣", "欤", "欧", "欪", "欲", "欺", "款", "歆", "歇", "歉", "歌", "止", "正", "此", "步", "武", "歧", "歪", "歹", "死", "歼", "殂", "殃", "殆", "殇", "殉", "殊", "残", "殍", "殒", "殓", "殖", "殛", "殡", "殳", "殴", "段", "殷", "殿", "毁", "毅", "毋", "母", "每", "毒", "比", "毕", "毗", "毘", "毙", "毛", "毡", "毫", "毵", "氏", "氐", "民", "氓", "气", "氛", "氰", "水", "永", "汀", "汁", "求", "汇", "汉", "汕", "汗", "汙", "汛", "汝", "江", "池", "污", "汤", "汪", "汰", "汲", "汴", "汶", "汹", "汽", "沁", "沂", "沃", "沈", "沉", "沌", "沐", "沓", "沙", "沛", "沟", "没", "沤", "沥", "沦", "沧", "沪", "沫", "河", "沸", "油", "治", "沼", "沽", "沾", "沿", "泄", "泉", "泊", "泌", "法", "泗", "泛", "泡", "波", "泣", "泥", "注", "泪", "泯", "泰", "泳", "泻", "泼", "泽", "泾", "洁", "洋", "洌", "洒", "洗", "洛", "洞", "津", "洪", "洲", "洵", "活", "洼", "洽", "派", "流", "浃", "浅", "浆", "浇", "浊", "测", "济", "浑", "浒", "浓", "浔", "浙", "浦", "浩", "浪", "浮", "浴", "海", "浸", "涂", "涅", "消", "涉", "涌", "涓", "涕", "涛", "涡", "涣", "涤", "润", "涧", "涨", "涩", "涯", "液", "涵", "涸", "涿", "淅", "淆", "淇", "淋", "淌", "淏", "淑", "淘", "淝", "淡", "淤", "淦", "淫", "淮", "深", "淳", "混", "淹", "添", "清", "渊", "渍", "渎", "渐", "渔", "渗", "渚", "渝", "渠", "渡", "渣", "温", "港", "渲", "渴", "游", "渺", "湃", "湔", "湖", "湘", "湮", "湾", "湿", "溃", "溅", "溇", "溉", "源", "溜", "溢", "溥", "溪", "溯", "溶", "溷", "溺", "滂", "滋", "滑", "滓", "滔", "滚", "滞", "满", "滢", "滥", "滨", "滩", "滴", "漂", "漆", "漏", "漓", "演", "漠", "漪", "漫", "漱", "漳", "漾", "潇", "潘", "潜", "潢", "潦", "潭", "潮", "潺", "潼", "澄", "澈", "澌", "澎", "澡", "激", "濂", "濒", "濡", "濬", "瀑", "瀛", "瀹", "瀼", "灌", "火", "灭", "灯", "灰", "灵", "灶", "灼", "灾", "灿", "炀", "炆", "炉", "炊", "炎", "炒", "炖", "炙", "炫", "炬", "炭", "炮", "炯", "炳", "炸", "点", "炼", "炽", "烁", "烂", "烈", "烘", "烙", "烛", "烟", "烤", "烦", "烧", "烩", "烫", "烬", "热", "烹", "烽", "焉", "焕", "焖", "焚", "焦", "焯", "焰", "然", "煌", "煎", "煞", "煤", "照", "煨", "煮", "煽", "熄", "熊", "熏", "熔", "熙", "熛", "熟", "熬", "熳", "熹", "燃", "燔", "燕", "燥", "燧", "燮", "燹", "爆", "爨", "爪", "爬", "爰", "爱", "父", "爷", "爸", "爹", "爽", "片", "版", "牌", "牍", "牒", "牙", "牛", "牟", "牠", "牡", "牢", "牧", "物", "牯", "牲", "牵", "特", "牺", "犀", "犁", "犊", "犍", "犒", "犬", "犯", "状", "犷", "犹", "狁", "狂", "狄", "狈", "狐", "狗", "狞", "狠", "狡", "独", "狭", "狮", "狱", "狲", "狷", "狸", "狼", "猃", "猎", "猖", "猗", "猛", "猜", "猝", "猡", "猢", "猥", "猩", "猪", "猫", "猬", "献", "猴", "猷", "猹", "猾", "猿", "獐", "獗", "獠", "獾", "玄", "率", "玉", "王", "玑", "玛", "玩", "玫", "玭", "环", "现", "玲", "玳", "玷", "玻", "玼", "珀", "珂", "珊", "珍", "珑", "珠", "珥", "珪", "班", "珰", "珽", "球", "琅", "理", "琉", "琊", "琐", "琛", "琥", "琦", "琨", "琰", "琱", "琳", "琴", "琵", "琶", "琼", "瑁", "瑒", "瑕", "瑙", "瑚", "瑜", "瑞", "瑟", "瑰", "瑶", "瑾", "璃", "璋", "璜", "璞", "璧", "瓒", "瓜", "瓢", "瓣", "瓦", "瓮", "瓶", "甓", "甘", "甚", "甜", "生", "用", "甩", "甫", "田", "由", "甲", "申", "电", "男", "甸", "画", "畀", "畅", "界", "畏", "留", "畜", "略", "畦", "番", "畸", "疆", "疏", "疑", "疖", "疗", "疙", "疚", "疤", "疫", "疮", "疯", "疲", "疵", "疹", "疼", "疽", "疾", "痂", "病", "症", "痈", "痉", "痒", "痕", "痛", "痢", "痧", "痨", "痰", "痱", "痴", "痹", "痼", "瘐", "瘟", "瘠", "瘢", "瘥", "瘦", "瘩", "瘪", "瘴", "瘸", "瘾", "癖", "癞", "癸", "登", "白", "百", "皂", "的", "皆", "皇", "皋", "皎", "皑", "皓", "皖", "皮", "皱", "皿", "盂", "盆", "盈", "益", "盍", "盎", "盏", "盐", "监", "盒", "盔", "盖", "盗", "盘", "盛", "盞", "盟", "目", "盯", "盲", "直", "相", "盹", "盼", "盾", "省", "眉", "看", "真", "眠", "眦", "眨", "眩", "眬", "眶", "眷", "眸", "眺", "眼", "着", "睁", "睎", "睑", "睚", "睛", "睡", "睢", "督", "睦", "睫", "睬", "睹", "瞀", "瞄", "瞅", "瞌", "瞎", "瞑", "瞒", "瞟", "瞥", "瞧", "瞪", "瞬", "瞻", "瞿", "矍", "矛", "矜", "矢", "矣", "知", "矩", "矫", "短", "矮", "石", "矿", "码", "砂", "砉", "砍", "研", "砖", "砚", "砥", "砭", "破", "砸", "砺", "砾", "础", "硕", "硝", "硫", "硬", "确", "碌", "碍", "碎", "碑", "碗", "碟", "碣", "碧", "碰", "碱", "碾", "磁", "磊", "磋", "磐", "磕", "磨", "磬", "磷", "磺", "示", "礼", "社", "祀", "祁", "祆", "祇", "祈", "祓", "祖", "祜", "祝", "神", "祟", "祠", "祢", "祥", "票", "祭", "祯", "祷", "祸", "祺", "禀", "禁", "禄", "禅", "福", "禳", "禹", "禺", "离", "禽", "禾", "秀", "私", "秃", "秉", "秋", "种", "科", "秒", "秔", "秕", "秘", "租", "秤", "秦", "秧", "秩", "秫", "积", "称", "移", "秽", "秾", "稀", "程", "稍", "税", "稔", "稗", "稚", "稣", "稳", "稷", "稹", "稻", "稼", "稽", "稿", "穆", "穴", "究", "穷", "空", "穿", "突", "窃", "窄", "窍", "窑", "窖", "窗", "窘", "窜", "窝", "窟", "窠", "窣", "窥", "窦", "窸", "窿", "立", "竖", "站", "竞", "竟", "章", "童", "竦", "竭", "端", "竹", "竿", "笃", "笋", "笏", "笑", "笔", "笛", "笞", "笠", "符", "笨", "第", "笳", "笺", "笼", "等", "筋", "筌", "筐", "筑", "筒", "答", "策", "筛", "筝", "筵", "筷", "筹", "签", "简", "箔", "箕", "算", "箝", "箠", "管", "箩", "箭", "箱", "箴", "箸", "篆", "篇", "篓", "篙", "篠", "篡", "篦", "篮", "篱", "篷", "篾", "簇", "簌", "簧", "簪", "簸", "簿", "籀", "籁", "籍", "米", "类", "粉", "粒", "粕", "粗", "粘", "粜", "粟", "粤", "粥", "粪", "粮", "粱", "粹", "精", "糊", "糕", "糖", "糙", "糜", "糟", "糠", "系", "素", "索", "紧", "紫", "累", "絮", "綦", "繁", "纂", "纛", "纠", "红", "纣", "纤", "约", "级", "纪", "纫", "纬", "纭", "纯", "纱", "纲", "纳", "纵", "纷", "纸", "纹", "纺", "纽", "纾", "线", "绁", "绂", "练", "组", "绅", "细", "织", "终", "绉", "绌", "绍", "绎", "经", "绑", "绒", "结", "绕", "绘", "给", "绛", "络", "绝", "绞", "统", "绢", "绣", "绥", "绦", "继", "绩", "绪", "续", "绮", "绯", "绰", "绳", "维", "绵", "绶", "绸", "绺", "综", "绽", "绾", "绿", "缀", "缁", "缄", "缅", "缈", "缉", "缎", "缓", "缔", "缕", "编", "缘", "缙", "缚", "缜", "缝", "缠", "缢", "缣", "缥", "缦", "缧", "缨", "缩", "缭", "缰", "缳", "缴", "缸", "缺", "罐", "网", "罔", "罕", "罗", "罚", "罢", "罩", "罪", "置", "署", "罶", "羁", "羊", "羌", "美", "羞", "羡", "群", "羯", "羲", "羹", "羼", "羽", "羿", "翁", "翅", "翎", "翔", "翘", "翛", "翟", "翠", "翡", "翥", "翩", "翰", "翱", "翻", "翼", "耀", "老", "考", "者", "耆", "而", "耍", "耐", "耕", "耗", "耳", "耶", "耸", "耻", "耽", "聃", "聊", "聋", "职", "聒", "联", "聘", "聚", "聪", "肃", "肄", "肆", "肇", "肉", "肋", "肌", "肖", "肘", "肚", "肝", "肠", "股", "肢", "肤", "肥", "肩", "肮", "肯", "育", "肴", "肺", "肾", "肿", "胀", "胁", "胃", "胄", "胆", "背", "胎", "胖", "胙", "胚", "胛", "胜", "胞", "胡", "胤", "胥", "胧", "胭", "胯", "胱", "胶", "胸", "能", "脂", "脆", "脉", "脊", "脍", "脏", "脐", "脑", "脖", "脚", "脯", "脱", "脸", "脾", "腊", "腋", "腌", "腐", "腔", "腕", "腥", "腮", "腰", "腴", "腹", "腻", "腾", "腿", "膀", "膊", "膏", "膛", "膜", "膝", "膳", "膺", "臀", "臂", "臃", "臆", "臜", "臣", "自", "臭", "至", "致", "臻", "臾", "舀", "舂", "舅", "舆", "舌", "舍", "舐", "舒", "舔", "舛", "舜", "舞", "舟", "航", "舫", "般", "舰", "舱", "舵", "舶", "舷", "船", "艇", "艭", "良", "艰", "色", "艳", "艺", "艾", "节", "芋", "芍", "芑", "芒", "芙", "芜", "芝", "芥", "芦", "芬", "芭", "芮", "芰", "花", "芳", "芸", "芽", "苇", "苍", "苎", "苏", "苑", "苓", "苔", "苗", "苛", "苞", "苟", "若", "苦", "英", "苻", "茀", "茁", "茂", "范", "茄", "茅", "茉", "茎", "茕", "茧", "茨", "茫", "茭", "茯", "茴", "茵", "茶", "茸", "茹", "荃", "荆", "荇", "草", "荐", "荒", "荚", "荛", "荞", "荟", "荠", "荡", "荣", "荤", "荪", "荫", "药", "荷", "荸", "荻", "荼", "莅", "莉", "莎", "莓", "莞", "莠", "莫", "莱", "莲", "获", "莹", "莺", "莽", "菁", "菊", "菌", "菜", "菟", "菠", "菩", "菰", "菱", "菲", "萁", "萃", "萄", "萌", "萍", "萎", "萝", "萤", "营", "萦", "萧", "萨", "落", "葆", "著", "葛", "葡", "董", "葫", "葬", "葱", "葵", "蒂", "蒋", "蒐", "蒙", "蒯", "蒲", "蒸", "蒿", "蓁", "蓄", "蓉", "蓐", "蓑", "蓓", "蓝", "蓟", "蓦", "蓬", "蓼", "蔑", "蔓", "蔗", "蔚", "蔡", "蔬", "蔷", "蔻", "蔼", "蔽", "蕃", "蕉", "蕊", "蕗", "蕙", "蕴", "蕾", "薄", "薇", "薛", "薪", "薮", "薯", "藉", "藏", "藐", "藓", "藕", "藜", "藤", "藩", "藻", "蘸", "蘼", "虎", "虏", "虐", "虑", "虔", "虚", "虞", "虫", "虱", "虹", "虺", "虽", "虾", "蚀", "蚁", "蚂", "蚊", "蚍", "蚓", "蚕", "蚜", "蚣", "蚤", "蚩", "蚪", "蚬", "蚯", "蚱", "蛀", "蛆", "蛇", "蛉", "蛊", "蛋", "蛔", "蛙", "蛛", "蛟", "蛮", "蛰", "蛱", "蛳", "蛾", "蜀", "蜂", "蜈", "蜉", "蜍", "蜒", "蜓", "蜕", "蜘", "蜜", "蜡", "蜢", "蜮", "蜷", "蜻", "蜿", "蝇", "蝈", "蝉", "蝌", "蝎", "蝗", "蝙", "蝠", "蝥", "蝮", "蝴", "蝶", "螃", "融", "螓", "螟", "螫", "螭", "螺", "蟀", "蟆", "蟋", "蟹", "蟾", "蠃", "蠕", "蠢", "血", "行", "衍", "衔", "街", "衙", "衡", "衢", "衣", "补", "表", "衫", "衬", "衮", "衰", "衲", "衷", "衽", "衾", "袁", "袂", "袄", "袈", "袋", "袍", "袒", "袖", "袜", "被", "袭", "袱", "袴", "裀", "裁", "裂", "装", "裎", "裔", "裕", "裘", "裙", "裟", "裢", "裤", "裨", "裱", "裳", "裴", "裸", "裹", "褂", "褐", "褒", "褚", "褛", "褡", "褥", "褪", "褴", "褶", "襄", "襞", "襟", "西", "要", "覃", "覆", "见", "观", "规", "觅", "视", "览", "觉", "觑", "角", "解", "触", "觫", "觳", "言", "訄", "詈", "詹", "誉", "誊", "誓", "警", "譬", "计", "订", "讣", "认", "讥", "讦", "讨", "让", "讪", "讫", "训", "议", "讯", "记", "讲", "讳", "讴", "讶", "讷", "许", "讹", "论", "讼", "讽", "设", "访", "诀", "证", "诃", "评", "诅", "识", "诈", "诉", "诊", "诋", "诌", "词", "诏", "译", "诓", "试", "诗", "诘", "诙", "诚", "诛", "话", "诞", "诟", "诠", "诡", "询", "诣", "该", "详", "诧", "诨", "诩", "诫", "诬", "语", "诮", "误", "诰", "诱", "诲", "诳", "说", "诵", "请", "诸", "诺", "读", "诼", "诽", "课", "谁", "调", "谅", "谈", "谊", "谋", "谍", "谎", "谏", "谐", "谑", "谒", "谓", "谕", "谗", "谚", "谛", "谜", "谞", "谟", "谢", "谣", "谤", "谥", "谦", "谧", "谨", "谩", "谪", "谬", "谭", "谯", "谱", "谲", "谴", "谷", "谿", "豁", "豆", "豕", "象", "豢", "豨", "豪", "豫", "豳", "豸", "豹", "豺", "貂", "貉", "貌", "贝", "贞", "负", "贡", "财", "责", "贤", "败", "账", "货", "质", "贩", "贪", "贫", "贬", "购", "贮", "贯", "贰", "贱", "贳", "贴", "贵", "贸", "费", "贺", "贻", "贼", "贽", "贾", "贿", "赁", "赂", "赃", "资", "赉", "赊", "赋", "赌", "赎", "赏", "赐", "赔", "赖", "赘", "赚", "赛", "赞", "赠", "赢", "赤", "赦", "赧", "赫", "走", "赳", "赴", "赵", "赶", "起", "趁", "超", "越", "趋", "趟", "趣", "足", "趾", "跃", "跄", "跋", "跌", "跑", "跖", "跗", "跚", "跛", "距", "跟", "跨", "跪", "路", "跳", "践", "跷", "踁", "踉", "踊", "踌", "踏", "踔", "踝", "踞", "踢", "踪", "踱", "踵", "踹", "蹄", "蹇", "蹈", "蹊", "蹋", "蹑", "蹒", "蹙", "蹦", "蹩", "蹰", "蹲", "蹴", "蹶", "蹿", "躁", "躄", "躇", "身", "躬", "躯", "躲", "躺", "轋", "车", "轧", "轨", "轩", "轫", "转", "轮", "软", "轰", "轲", "轳", "轴", "轶", "轻", "轼", "载", "轿", "较", "辄", "辅", "辆", "辈", "辉", "辍", "辐", "辑", "输", "辔", "辕", "辖", "辗", "辘", "辙", "辛", "辜", "辞", "辟", "辣", "辨", "辩", "辫", "辰", "辱", "边", "辽", "达", "迁", "迂", "迅", "过", "迈", "迎", "运", "近", "返", "还", "这", "进", "远", "违", "连", "迟", "迢", "迥", "迦", "迨", "迩", "迪", "迫", "迭", "述", "迳", "迷", "迸", "迹", "迻", "追", "退", "送", "适", "逃", "逆", "选", "逊", "逋", "逍", "透", "逐", "递", "途", "逖", "逗", "通", "逛", "逝", "逞", "速", "造", "逢", "逭", "逮", "逵", "逷", "逸", "逻", "逼", "逾", "遁", "遂", "遇", "遍", "遏", "遐", "道", "遗", "遣", "遥", "遭", "遮", "遯", "遵", "遽", "避", "邀", "邃", "邑", "邓", "邢", "那", "邦", "邨", "邪", "邮", "邱", "邵", "邸", "邹", "邻", "郁", "郅", "郊", "郎", "郑", "郛", "郝", "郡", "郢", "部", "郭", "郷", "都", "鄂", "鄙", "鄜", "鄤", "鄹", "酉", "酊", "酋", "酌", "配", "酒", "酗", "酝", "酣", "酩", "酪", "酬", "酱", "酷", "酸", "酿", "醇", "醉", "醋", "醒", "醮", "醴", "醺", "采", "释", "里", "重", "野", "量", "金", "釜", "鉴", "鑫", "针", "钉", "钊", "钓", "钗", "钘", "钝", "钞", "钟", "钢", "钦", "钧", "钩", "钱", "钳", "钵", "钺", "钻", "钾", "钿", "铁", "铃", "铄", "铅", "铉", "铎", "铐", "铚", "铜", "铡", "铢", "铦", "铨", "铭", "铮", "铲", "银", "铸", "铺", "链", "铿", "销", "锁", "锄", "锅", "锈", "锋", "锐", "错", "锡", "锢", "锣", "锤", "锥", "锦", "锭", "键", "锯", "锵", "锸", "锻", "镁", "镂", "镇", "镌", "镑", "镖", "镗", "镜", "镞", "镠", "镣", "镫", "镬", "镯", "镰", "镳", "镶", "长", "门", "闩", "闪", "闭", "问", "闯", "闰", "闲", "闳", "间", "闷", "闸", "闹", "闺", "闻", "闼", "闽", "闾", "阀", "阁", "阄", "阅", "阇", "阉", "阎", "阐", "阑", "阒", "阔", "阖", "阙", "阚", "阜", "队", "阮", "阱", "防", "阳", "阴", "阵", "阶", "阻", "阿", "陀", "附", "际", "陆", "陇", "陈", "陋", "陌", "降", "限", "陕", "陛", "陟", "陡", "院", "除", "陨", "险", "陪", "陵", "陶", "陷", "隅", "隆", "隋", "隍", "随", "隐", "隔", "隗", "隘", "隙", "障", "隧", "隶", "隼", "隽", "难", "雀", "雁", "雄", "雅", "集", "雇", "雉", "雌", "雍", "雏", "雒", "雕", "雠", "雨", "雪", "雳", "零", "雷", "雾", "需", "霁", "霄", "霆", "震", "霉", "霍", "霏", "霓", "霖", "霜", "霞", "霭", "露", "霸", "霹", "青", "靖", "静", "非", "靠", "靡", "面", "靥", "革", "靴", "靶", "靼", "鞋", "鞍", "鞑", "鞒", "鞘", "鞠", "鞫", "鞭", "鞯", "韦", "韧", "韩", "韫", "韬", "韭", "音", "韵", "韶", "页", "顶", "顷", "项", "顺", "须", "顼", "顽", "顾", "顿", "颁", "颂", "预", "颅", "领", "颇", "颈", "颉", "颊", "颍", "颏", "颐", "频", "颓", "颖", "颗", "题", "颙", "颚", "颛", "颜", "额", "颠", "颢", "颤", "颦", "颧", "风", "飓", "飕", "飘", "飙", "飞", "食", "飧", "飨", "餍", "餐", "餮", "饔", "饕", "饥", "饨", "饪", "饬", "饭", "饮", "饯", "饰", "饱", "饲", "饴", "饵", "饶", "饷", "饼", "饽", "饿", "馁", "馄", "馆", "馈", "馋", "馑", "馒", "馔", "首", "馗", "香", "馨", "马", "驭", "驯", "驰", "驱", "驳", "驴", "驶", "驷", "驸", "驻", "驼", "驾", "驿", "骁", "骂", "骃", "骄", "骅", "骆", "骇", "骈", "骋", "验", "骏", "骑", "骗", "骘", "骙", "骚", "骜", "骡", "骤", "骨", "骸", "骼", "髀", "髁", "髅", "髑", "髓", "高", "髡", "髦", "髭", "髯", "髻", "鬓", "鬟", "鬣", "鬼", "鬽", "魁", "魂", "魄", "魅", "魆", "魇", "魏", "魔", "鱼", "鲁", "鲇", "鲈", "鲋", "鲜", "鲞", "鲠", "鲤", "鲫", "鳅", "鳌", "鳏", "鳖", "鳝", "鳞", "鸟", "鸠", "鸡", "鸣", "鸥", "鸦", "鸨", "鸪", "鸭", "鸮", "鸯", "鸰", "鸱", "鸳", "鸶", "鸷", "鸽", "鸾", "鸿", "鹁", "鹃", "鹄", "鹅", "鹊", "鹌", "鹏", "鹑", "鹗", "鹘", "鹡", "鹤", "鹧", "鹭", "鹰", "鹿", "麂", "麋", "麒", "麓", "麝", "麟", "麦", "麻", "黄", "黎", "黑", "黔", "默", "黛", "黯", "黻", "鼃", "鼋", "鼍", "鼎", "鼓", "鼗", "鼠", "鼷", "鼻", "鼾", "齐", "齼", "齿", "龄", "龊", "龌", "龙", "龚", "龛", "龟", "！", "＃", "＄", "％", "＆", "（", "）", "＊", "＋", "，", "－", "．", "／", "：", "；", "＜", "＝", "＞", "？", "＠", "Ａ", "Ｈ", "Ｉ", "Ｏ", "Ｔ", "Ｕ", "Ｗ", "Ｘ", "［", "＼", "］", "＾", "＿", "ｅ", "ｎ", "ｔ", "｛", "｜", "｝", "～", "　　", "了。", "阿q", "没有", "　　“", "……", "了，", "一个", "，他", "，便", "什么", "的人", "知道", "！”", "……”", "自己", "来，", "——", "。”", "：“", "。他", "说，", "，也", "，一", "了一", "他的", "时候", "？”", "因为", "的，", "子，", "他们", "有些", "，我", "人，", "而且", "，但", "，这", "所以", "　　阿q", "现在", "的。", "，却", "已经", "七斤", "，不", "这一", "　　我", "似乎", "革命", "，又", "然而", "虽然", "说，“", "觉得", "的一", "东西", "于是", "未庄", "赵太", "。我", "说：“", "说。", "的时候", "一九", "起来", "，只", "鲁迅", "看见", "这样", "”，", "去，", "，——", "可以", "许多", "，“", "是一", "女人", "单四", "单四嫂", "赵太爷", "乙己", "，都", "。这", "也不", "怎么", "孔乙己", "　　他", "我们", "里，", "眼睛", "仿佛", "忽然", "，阿q", "秀才", "的事", "，所以", "单四嫂子", "了；", "母亲", "还是", "道：“", "起来，", "不知道", "有一", "么？”", "，你", "上，", "以为", "老栓", "辫子", "了。”", "么？", "孩子", "话，", "，大", "老爷", "这是", "是不", "终于", "就是", "先生", "不是", "只是", "去了。", "闰土", "，是", "，在", "人的", "去。", "道，“", "之后", "的“", "呢？", "的人，", "两个", "”。", "后来", "不能", "至于", "只有", "老头", "慢慢", "，而且", "中国", "仍然", "不多", "并不", "第二", "说是", "掌柜", "举人", "洋鬼", "尼姑", "小d", "，有", "一样", "家的", "”“", "我的", "大哥", "几个", "儿子", "也没有", "革命党", "小栓", "渐渐", "宝儿", "七斤嫂", "，而", "时，", "，那", "吃人", "老头子", "的走", "本来", "假洋鬼", "七爷", "到了", "上的", "便是", "”的", "着，", "似的", "大约", "自己的", "或者", "声音", "酒店", "非常", "举人老爷", "二十", "，似乎", "。但", "，他们", "，才", "的是", "里的", "自然", "立刻", "　　“我", "坐在", "听得", "也就", "阿q的", "还有", "高兴", "天，", "一定", "头，", "里面", "可是", "钱，", "了。他", "坐着", "。阿q", "王胡", "作品", "一代", "今天", "他，", "不住", "前，", "家里", "不出", "记得", "　　这", "”：", "心里", "，……", "　　“你", "不得", "，一面", "气，", "来了。", "皇帝", "土谷", "土谷祠", "第一", "故乡", "正传", "子的", "是“", "　　但", "一般", "章 ", "思想", "不平", "不过", "也很", "来。", "着一", "一件", "屋子", "在他", "是一个", "一面", "华大", "华大妈", "，已经", "造反", "一九二", "叫他", "先前", "假洋鬼子", "邹七", "邹七嫂", "车夫", "赵七爷", "，并", "人物", "应该", "十分", "晓得", "听到", "着。", "家，", "别人", "外面", "怎样", "不要", "的时候，", "意思", "这些", "的大", "政府", "来的", "这时", "，因为", "辫子，", "进城", "老太", "精神", "，从", "，我们", "》，", "的小", "父亲", "最初", "如此", "这里", "哪里", "了一个", "一回", "出一", "之后，", "，于是", "城里", "，说", "天的", "站在", "去了，", "几乎", "饭，", "呢？”", "阿五", "渐渐的", "人们", "没有见", "长衫", "六斤", "文化", "社会", "都是", "也是", "，可", "门，", "想：", "这么", "起来。", "他们的", "想，", "一年", "人都", "话。", "给他", "以后", "的一种", "地方", "作者", "见了", "愿意", "咸亨", "了。但", "脸上", "不如", "小尼姑", "教员", "文学", "封建", "同时", "本篇", "青年", "明白", "女人，", "了一会", "不知", "；他", "原来", "。他们", "那时", "，看", "早已", "从来", "去了", "走到", "格外", "对他", "的事。", "显出", "太阳", "起身", "的声音", "正在", "一条", "地上", "老拱", "还不", "帮忙", "，再", "没有什么", "对于", "照例", "忽而", "……”阿q", "伊的", "吴妈", "九斤", "深刻", "有的", "成了", "妈妈", "生活", "朋友", "发表", "《新", "多年", "三十", "，全", "路上", "的一个", "那里", "的；", "事，", "眼光", "说“", "了几", "一会", "想。", "头。", "真是", "毫不", "），", "一种", "实在", "白的", "衣服", "罢。”", "分明", "，忽然", "红的", "后面", "耳朵", "在这", "，没有", "王九", "王九妈", "回来", "放在", "，然而", "的话", "　　然而", "可惜", "地保", "，将", "赵府", "了！”", "差不多", "九斤老太", "民族", "历史", "，无", "大的", "人。", "不同", "仔细", "发表于", "《新青年", "还没有", "之类", "议论", "仍旧", "晚上", "看着", "的人都", "大家", "，他便", "一点", "说道，“", "赶紧", "（1", "从前", "心，", "可怜", "问他", "不该", "吃饭", "吃过", "：指", "之一", "着；", "愤愤", "！你", "出，", "有点", "，现在", "有“", "下，", "”字", "突然", "住了", "的一声", "，却又", "不敢", "吃完", "这样的", "走，", "　　“阿", "的，但", "不上", "然的", "北京", "酒，", "时候，", "希望", "幸而", "十九", "所谓", "他又", "因此", "乡下", "。然而", "回到", "土谷祠，", "动手", "赵家", "飘飘", "从此", "太太", "烟管", "赵白", "赵白眼", "上城", "宏儿", "水生", "，其", "的天", "的光", "。他的", "鲁迅在", "时代", "人生", "，即", "先生的", "有人", "的问", "小说", "年的", "日记", "　　本篇", "　　本篇最初", "《新青年》", "号。", "不见", "，对", "在那里", "有什么", "，他也", "很不", "总是", "了他", "奇怪", "进了", "想到", "怎么会", "，便是", "—1", "十二", "传》", "不但", "，还", "，连", "本家", "，他的", "好，", "然了。", "，大约", "变成", "出去", "说，“你", "头上", "，指", "一九一九", "一九一九年", "起身，", "老女人", "了两", "接着", "下去，", "的叫", "一手", "认为", "早经", "夹袄", "没有人", "他。", "康大", "康大叔", "睡着", "慢慢的", "两手", "跟着", "模样", "的说。", "，倒", "走近", "四面", "一口", "慢慢地", "手里", "鲁镇", "　　单四嫂子", "容易", "对面", "为“", "姓赵", "，或者", "未庄人", "未庄的", "人家", "舂米", "忘却", "的神", "，后来", "，这才", "得意", "不准", "赵司", "赵司晨", "妈妈的", "萝卜", "，……”", "栅栏", "不如一代", "　　七斤嫂", "龙庭", "八一", "八一嫂", "第1", "一个人", "，以", "后，", "便在", "能够", "，一直", "的《", "狂人", "　　本篇最初发表于", "清代", "通过", "很好", "着嘴", "大声", "认识", "教我", "过的", "说道：“", "老五", "佃户", "便都", "吃我", "心思", "况且", "时常", "了这", "一碗", "吃人的人", "不肯", "其实", "伸出", "，被", "勇气", "是我", "几天", "》中", "表示", "。这里", "语出", "语出《", "街上", "叫“", "笑着", "喜欢", "天气", "变了", "脸，", "睡觉", "门槛", "门外", "回过", "得很", "易牙", "的儿子", "巡警", "学生", "，自己", "身上", "　　母亲", "并没有", "孩子，", "的响", "　　老栓", "，仿佛", "远远", "别的", "面前，", "那人", "出来", "的圆", "轻轻", "胡子", "，要", "了。我", "还要", "和他", "说：", "知道他", "　　“他", "热闹", "放下", "指头", "一看", "你的", "间，", "明天", "蓝皮", "蓝皮阿五", "柜台", "岁的", "在地上", "不少", "一支", "却不", "站着", "异样", "的确", "xt", "传，", "传”", "并无", "：即", "此后", "提起", "行状", "做工", "尊敬", "。于是", "怒目", "满意", "胜利", "这回", "酒店里", "！”阿q", "，很", "起来了，", "钢鞭", "老尼姑", "黑狗", "杀头", "赵太太", "　　“那", "盘在", "官僚", "把总", "洋先生", "　　七斤", "圣叹", "，为", "，就是", "表现", "国民", "进行", "中国的", "算是", "向着", "文章", "也许", "《鲁迅", "主义", "长的", "，还是", "，虽", "不足", "一九一", "职务", "，听", "日，", "小心", "前面", "脸色", "也都", "长久", "，一定", "　　他们", "。这一", "我大哥", "顶上", "未必", "不会", "前天", "我自己", "自从", "手，", "究竟", "，我也", "写着", "半夜", "书上", "字，", "眼睛，", "答应", "，走", "，只是", "暗暗", "的。”", "名目", "一片", "静的", "低声", "一步", "曾经", "说过", "年，", "时的", "年纪", "既然", "得，", "呜呜", "！——", "东西，", "样子", "　　“没有", "着眼", "居然", "静，", "说不出", "满脸", "将来", "正是", "走了。", "屋子里", "发抖", "，就", "十一", "还在", "　　【", "　　【按", "　　【按语", "　　【按语】", "制度", "了二十", "字。", "咳嗽", "着他的", "得了", "步，", "面前", "古怪", "的手", "；一", "着一个", "旧时", "说，“这", "中，", "四个", "了。这", "工夫", "禁不住", "有些不", "花白", "腰间", "包好", "；但", "，仍然", "奶奶", "嘴巴", "靠着", "　　这一", "确乎", "了，但", "感到", "。单四嫂子", "，觉得", "，单四嫂子", "了“", "，说是", "留心", "第一个", "畜生", "情形", "身边", "，总", "得不", "使他", "不愿意", "茴香", "茴香豆", "罢了。", "有几", "豆腐", "关于", "开口", "钱。", "ue", "uei", "茂才", "短工", "这话", "而至于", "乡下人", "，阿q便", "，大抵", "怒目而", "怒目而视", "闲人们", "足的", "现在的", "说出", "不到", "说：“这", "近来", "了三", "发生", "门口", "！……”", "男人", "可恶", "晚饭", "竹杠", "了他的", "站住", "下面", "，有时", "便将", "村人", "白盔", "白盔白", "白盔白甲", "。但他", "将辫子", "将辫子盘在", "辛亥", "辛亥革命", "抬出", "栅栏门", "上面", "。孔乙己", "乌桕", "一代不如一代", "坐了", "的故乡", "海边", "贝壳", "方玄", "方玄绰", "的天空", "影响", "深刻的", "新的", "鲁迅的", "如果", "英国", "下的", "至今", "读者", "的重", "原因", "读来", "好的", "艺术", "阿q正传", "生命", "是在", "月《新青年》", "月《新青年》第", "第五", "消息", "科举", "笑，", "者，", "研究", "　　一", "见了，", "赵家的", "，何", "看我", "赵贵", "赵贵翁", "怕我", "；我", "一伙", "忍不住", "说：“你", "告诉", "统治", "伤心", "老子", "也有", "，也有", "嘴里", "惊，", "陈老五", "回家", "回家，", "狼子", "，可以", "全是", "吃人的", "几句", "清楚", "如何", "放松", "看他", "了好", "张开", "静静的", "又是", "，想", "笑声", "正气"], "merges": [[["　", "　"], "　　"], [["了", "。"], "了。"], [["阿", "q"], "阿q"], [["没", "有"], "没有"], [["　　", "“"], "　　“"], [["…", "…"], "……"], [["了", "，"], "了，"], [["一", "个"], "一个"], [["，", "他"], "，他"], [["，", "便"], "，便"], [["什", "么"], "什么"], [["的", "人"], "的人"], [["知", "道"], "知道"], [["！", "”"], "！”"], [["……", "”"], "……”"], [["自", "己"], "自己"], [["来", "，"], "来，"], [["—", "—"], "——"], [["。", "”"], "。”"], [["：", "“"], "：“"], [["。", "他"], "。他"], [["说", "，"], "说，"], [["，", "也"], "，也"], [["，", "一"], "，一"], [["了", "一"], "了一"], [["他", "的"], "他的"], [["时", "候"], "时候"], [["？", "”"], "？”"], [["因", "为"], "因为"], [["的", "，"], "的，"], [["子", "，"], "子，"], [["他", "们"], "他们"], [["有", "些"], "有些"], [["，", "我"], "，我"], [["人", "，"], "人，"], [["而", "且"], "而且"], [["，", "但"], "，但"], [["，", "这"], "，这"], [["所", "以"], "所以"], [["　　", "阿q"], "　　阿q"], [["现", "在"], "现在"], [["的", "。"], "的。"], [["，", "却"], "，却"], [["已", "经"], "已经"], [["七", "斤"], "七斤"], [["，", "不"], "，不"], [["这", "一"], "这一"], [["　　", "我"], "　　我"], [["似", "乎"], "似乎"], [["革", "命"], "革命"], [["，", "又"], "，又"], [["然", "而"], "然而"], [["虽", "然"], "虽然"], [["说，", "“"], "说，“"], [["觉", "得"], "觉得"], [["的", "一"], "的一"], [["东", "西"], "东西"], [["于", "是"], "于是"], [["未", "庄"], "未庄"], [["赵", "太"], "赵太"], [["。", "我"], "。我"], [["说", "：“"], "说：“"], [["说", "。"], "说。"], [["的", "时候"], "的时候"], [["一", "九"], "一九"], [["起", "来"], "起来"], [["，", "只"], "，只"], [["鲁", "迅"], "鲁迅"], [["看", "见"], "看见"], [["这", "样"], "这样"], [["”", "，"], "”，"], [["去", "，"], "去，"], [["，", "——"], "，——"], [["可", "以"], "可以"], [["许", "多"], "许多"], [["，", "“"], "，“"], [["是", "一"], "是一"], [["女", "人"], "女人"], [["单", "四"], "单四"], [["单四", "嫂"], "单四嫂"], [["赵太", "爷"], "赵太爷"], [["乙", "己"], "乙己"], [["，", "都"], "，都"], [["。", "这"], "。这"], [["也", "不"], "也不"], [["怎", "么"], "怎么"], [["孔", "乙己"], "孔乙己"], [["　　", "他"], "　　他"], [["我", "们"], "我们"], [["里", "，"], "里，"], [["眼", "睛"], "眼睛"], [["仿", "佛"], "仿佛"], [["忽", "然"], "忽然"], [["，", "阿q"], "，阿q"], [["秀", "才"], "秀才"], [["的", "事"], "的事"], [["，", "所以"], "，所以"], [["单四嫂", "子"], "单四嫂子"], [["了", "；"], "了；"], [["母", "亲"], "母亲"], [["还", "是"], "还是"], [["道", "：“"], "道：“"], [["起", "来，"], "起来，"], [["不", "知道"], "不知道"], [["有", "一"], "有一"], [["么", "？”"], "么？”"], [["，", "你"], "，你"], [["上", "，"], "上，"], [["以", "为"], "以为"], [["老", "栓"], "老栓"], [["辫", "子"], "辫子"], [["了。", "”"], "了。”"], [["么", "？"], "么？"], [["孩", "子"], "孩子"], [["话", "，"], "话，"], [["，", "大"], "，大"], [["老", "爷"], "老爷"], [["这", "是"], "这是"], [["是", "不"], "是不"], [["终", "于"], "终于"], [["就", "是"], "就是"], [["先", "生"], "先生"], [["不", "是"], "不是"], [["只", "是"], "只是"], [["去", "了。"], "去了。"], [["闰", "土"], "闰土"], [["，", "是"], "，是"], [["，", "在"], "，在"], [["人", "的"], "人的"], [["去", "。"], "去。"], [["道", "，“"], "道，“"], [["之", "后"], "之后"], [["的", "“"], "的“"], [["呢", "？"], "呢？"], [["的人", "，"], "的人，"], [["两", "个"], "两个"], [["”", "。"], "”。"], [["后", "来"], "后来"], [["不", "能"], "不能"], [["至", "于"], "至于"], [["只", "有"], "只有"], [["老", "头"], "老头"], [["慢", "慢"], "慢慢"], [["，", "而且"], "，而且"], [["中", "国"], "中国"], [["仍", "然"], "仍然"], [["不", "多"], "不多"], [["并", "不"], "并不"], [["第", "二"], "第二"], [["说", "是"], "说是"], [["掌", "柜"], "掌柜"], [["举", "人"], "举人"], [["洋", "鬼"], "洋鬼"], [["尼", "姑"], "尼姑"], [["小", "d"], "小d"], [["，", "有"], "，有"], [["一", "样"], "一样"], [["家", "的"], "家的"], [["”", "“"], "”“"], [["我", "的"], "我的"], [["大", "哥"], "大哥"], [["几", "个"], "几个"], [["儿", "子"], "儿子"], [["也", "没有"], "也没有"], [["革命", "党"], "革命党"], [["小", "栓"], "小栓"], [["渐", "渐"], "渐渐"], [["宝", "儿"], "宝儿"], [["七斤", "嫂"], "七斤嫂"], [["，", "而"], "，而"], [["时", "，"], "时，"], [["，", "那"], "，那"], [["吃", "人"], "吃人"], [["老头", "子"], "老头子"], [["的", "走"], "的走"], [["本", "来"], "本来"], [["假", "洋鬼"], "假洋鬼"], [["七", "爷"], "七爷"], [["到", "了"], "到了"], [["上", "的"], "上的"], [["便", "是"], "便是"], [["”", "的"], "”的"], [["着", "，"], "着，"], [["似", "的"], "似的"], [["大", "约"], "大约"], [["自己", "的"], "自己的"], [["或", "者"], "或者"], [["声", "音"], "声音"], [["酒", "店"], "酒店"], [["非", "常"], "非常"], [["举人", "老爷"], "举人老爷"], [["二", "十"], "二十"], [["，", "似乎"], "，似乎"], [["。", "但"], "。但"], [["，他", "们"], "，他们"], [["，", "才"], "，才"], [["的", "是"], "的是"], [["里", "的"], "里的"], [["自", "然"], "自然"], [["立", "刻"], "立刻"], [["　　“", "我"], "　　“我"], [["坐", "在"], "坐在"], [["听", "得"], "听得"], [["也", "就"], "也就"], [["阿q", "的"], "阿q的"], [["还", "有"], "还有"], [["高", "兴"], "高兴"], [["天", "，"], "天，"], [["一", "定"], "一定"], [["头", "，"], "头，"], [["里", "面"], "里面"], [["可", "是"], "可是"], [["钱", "，"], "钱，"], [["了。", "他"], "了。他"], [["坐", "着"], "坐着"], [["。", "阿q"], "。阿q"], [["王", "胡"], "王胡"], [["作", "品"], "作品"], [["一", "代"], "一代"], [["今", "天"], "今天"], [["他", "，"], "他，"], [["不", "住"], "不住"], [["前", "，"], "前，"], [["家", "里"], "家里"], [["不", "出"], "不出"], [["记", "得"], "记得"], [["　　", "这"], "　　这"], [["”", "："], "”："], [["心", "里"], "心里"], [["，", "……"], "，……"], [["　　“", "你"], "　　“你"], [["不", "得"], "不得"], [["，一", "面"], "，一面"], [["气", "，"], "气，"], [["来", "了。"], "来了。"], [["皇", "帝"], "皇帝"], [["土", "谷"], "土谷"], [["土谷", "祠"], "土谷祠"], [["第", "一"], "第一"], [["故", "乡"], "故乡"], [["正", "传"], "正传"], [["子", "的"], "子的"], [["是", "“"], "是“"], [["　　", "但"], "　　但"], [["一", "般"], "一般"], [["章", " "], "章 "], [["思", "想"], "思想"], [["不", "平"], "不平"], [["不", "过"], "不过"], [["也", "很"], "也很"], [["来", "。"], "来。"], [["着", "一"], "着一"], [["一", "件"], "一件"], [["屋", "子"], "屋子"], [["在", "他"], "在他"], [["是", "一个"], "是一个"], [["一", "面"], "一面"], [["华", "大"], "华大"], [["华大", "妈"], "华大妈"], [["，", "已经"], "，已经"], [["造", "反"], "造反"], [["一九", "二"], "一九二"], [["叫", "他"], "叫他"], [["先", "前"], "先前"], [["假洋鬼", "子"], "假洋鬼子"], [["邹", "七"], "邹七"], [["邹七", "嫂"], "邹七嫂"], [["车", "夫"], "车夫"], [["赵", "七爷"], "赵七爷"], [["，", "并"], "，并"], [["人", "物"], "人物"], [["应", "该"], "应该"], [["十", "分"], "十分"], [["晓", "得"], "晓得"], [["听", "到"], "听到"], [["着", "。"], "着。"], [["家", "，"], "家，"], [["别", "人"], "别人"], [["外", "面"], "外面"], [["怎", "样"], "怎样"], [["不", "要"], "不要"], [["的时候", "，"], "的时候，"], [["意", "思"], "意思"], [["这", "些"], "这些"], [["的", "大"], "的大"], [["政", "府"], "政府"], [["来", "的"], "来的"], [["这", "时"], "这时"], [["，", "因为"], "，因为"], [["辫", "子，"], "辫子，"], [["进", "城"], "进城"], [["老", "太"], "老太"], [["精", "神"], "精神"], [["，", "从"], "，从"], [["，我", "们"], "，我们"], [["》", "，"], "》，"], [["的", "小"], "的小"], [["父", "亲"], "父亲"], [["最", "初"], "最初"], [["如", "此"], "如此"], [["这", "里"], "这里"], [["哪", "里"], "哪里"], [["了", "一个"], "了一个"], [["一", "回"], "一回"], [["出", "一"], "出一"], [["之后", "，"], "之后，"], [["，", "于是"], "，于是"], [["城", "里"], "城里"], [["，", "说"], "，说"], [["天", "的"], "天的"], [["站", "在"], "站在"], [["去", "了，"], "去了，"], [["几", "乎"], "几乎"], [["饭", "，"], "饭，"], [["呢", "？”"], "呢？”"], [["阿", "五"], "阿五"], [["渐渐", "的"], "渐渐的"], [["人", "们"], "人们"], [["没有", "见"], "没有见"], [["长", "衫"], "长衫"], [["六", "斤"], "六斤"], [["文", "化"], "文化"], [["社", "会"], "社会"], [["都", "是"], "都是"], [["也", "是"], "也是"], [["，", "可"], "，可"], [["门", "，"], "门，"], [["想", "："], "想："], [["这", "么"], "这么"], [["起来", "。"], "起来。"], [["他们", "的"], "他们的"], [["想", "，"], "想，"], [["一", "年"], "一年"], [["人", "都"], "人都"], [["话", "。"], "话。"], [["给", "他"], "给他"], [["以", "后"], "以后"], [["的一", "种"], "的一种"], [["地", "方"], "地方"], [["作", "者"], "作者"], [["见", "了"], "见了"], [["愿", "意"], "愿意"], [["咸", "亨"], "咸亨"], [["了。", "但"], "了。但"], [["脸", "上"], "脸上"], [["不", "如"], "不如"], [["小", "尼姑"], "小尼姑"], [["教", "员"], "教员"], [["文", "学"], "文学"], [["封", "建"], "封建"], [["同", "时"], "同时"], [["本", "篇"], "本篇"], [["青", "年"], "青年"], [["明", "白"], "明白"], [["女", "人，"], "女人，"], [["了一", "会"], "了一会"], [["不", "知"], "不知"], [["；", "他"], "；他"], [["原", "来"], "原来"], [["。他", "们"], "。他们"], [["那", "时"], "那时"], [["，", "看"], "，看"], [["早", "已"], "早已"], [["从", "来"], "从来"], [["去", "了"], "去了"], [["走", "到"], "走到"], [["格", "外"], "格外"], [["对", "他"], "对他"], [["的事", "。"], "的事。"], [["显", "出"], "显出"], [["太", "阳"], "太阳"], [["起", "身"], "起身"], [["的", "声音"], "的声音"], [["正", "在"], "正在"], [["一", "条"], "一条"], [["地", "上"], "地上"], [["老", "拱"], "老拱"], [["还", "不"], "还不"], [["帮", "忙"], "帮忙"], [["，", "再"], "，再"], [["没有", "什么"], "没有什么"], [["对", "于"], "对于"], [["照", "例"], "照例"], [["忽", "而"], "忽而"], [["……”", "阿q"], "……”阿q"], [["伊", "的"], "伊的"], [["吴", "妈"], "吴妈"], [["九", "斤"], "九斤"], [["深", "刻"], "深刻"], [["有", "的"], "有的"], [["成", "了"], "成了"], [["妈", "妈"], "妈妈"], [["生", "活"], "生活"], [["朋", "友"], "朋友"], [["发", "表"], "发表"], [["《", "新"], "《新"], [["多", "年"], "多年"], [["三", "十"], "三十"], [["，", "全"], "，全"], [["路", "上"], "路上"], [["的", "一个"], "的一个"], [["那", "里"], "那里"], [["的", "；"], "的；"], [["事", "，"], "事，"], [["眼", "光"], "眼光"], [["说", "“"], "说“"], [["了", "几"], "了几"], [["一", "会"], "一会"], [["想", "。"], "想。"], [["头", "。"], "头。"], [["真", "是"], "真是"], [["毫", "不"], "毫不"], [["）", "，"], "），"], [["一", "种"], "一种"], [["实", "在"], "实在"], [["白", "的"], "白的"], [["衣", "服"], "衣服"], [["罢", "。”"], "罢。”"], [["分", "明"], "分明"], [["，", "忽然"], "，忽然"], [["红", "的"], "红的"], [["后", "面"], "后面"], [["耳", "朵"], "耳朵"], [["在", "这"], "在这"], [["，", "没有"], "，没有"], [["王", "九"], "王九"], [["王九", "妈"], "王九妈"], [["回", "来"], "回来"], [["放", "在"], "放在"], [["，", "然而"], "，然而"], [["的", "话"], "的话"], [["　　", "然而"], "　　然而"], [["可", "惜"], "可惜"], [["地", "保"], "地保"], [["，", "将"], "，将"], [["赵", "府"], "赵府"], [["了", "！”"], "了！”"], [["差", "不多"], "差不多"], [["九斤", "老太"], "九斤老太"], [["民", "族"], "民族"], [["历", "史"], "历史"], [["，", "无"], "，无"], [["大", "的"], "大的"], [["人", "。"], "人。"], [["不", "同"], "不同"], [["仔", "细"], "仔细"], [["发表", "于"], "发表于"], [["《新", "青年"], "《新青年"], [["还", "没有"], "还没有"], [["之", "类"], "之类"], [["议", "论"], "议论"], [["仍", "旧"], "仍旧"], [["晚", "上"], "晚上"], [["看", "着"], "看着"], [["的人", "都"], "的人都"], [["大", "家"], "大家"], [["，他", "便"], "，他便"], [["一", "点"], "一点"], [["说", "道，“"], "说道，“"], [["赶", "紧"], "赶紧"], [["（", "1"], "（1"], [["从", "前"], "从前"], [["心", "，"], "心，"], [["可", "怜"], "可怜"], [["问", "他"], "问他"], [["不", "该"], "不该"], [["吃", "饭"], "吃饭"], [["吃", "过"], "吃过"], [["：", "指"], "：指"], [["之", "一"], "之一"], [["着", "；"], "着；"], [["愤", "愤"], "愤愤"], [["！", "你"], "！你"], [["出", "，"], "出，"], [["有", "点"], "有点"], [["，", "现在"], "，现在"], [["有", "“"], "有“"], [["下", "，"], "下，"], [["”", "字"], "”字"], [["突", "然"], "突然"], [["住", "了"], "住了"], [["的一", "声"], "的一声"], [["，却", "又"], "，却又"], [["不", "敢"], "不敢"], [["吃", "完"], "吃完"], [["这样", "的"], "这样的"], [["走", "，"], "走，"], [["　　“", "阿"], "　　“阿"], [["的，", "但"], "的，但"], [["不", "上"], "不上"], [["然", "的"], "然的"], [["北", "京"], "北京"], [["酒", "，"], "酒，"], [["时候", "，"], "时候，"], [["希", "望"], "希望"], [["幸", "而"], "幸而"], [["十", "九"], "十九"], [["所", "谓"], "所谓"], [["他", "又"], "他又"], [["因", "此"], "因此"], [["乡", "下"], "乡下"], [["。", "然而"], "。然而"], [["回", "到"], "回到"], [["土谷祠", "，"], "土谷祠，"], [["动", "手"], "动手"], [["赵", "家"], "赵家"], [["飘", "飘"], "飘飘"], [["从", "此"], "从此"], [["太", "太"], "太太"], [["烟", "管"], "烟管"], [["赵", "白"], "赵白"], [["赵白", "眼"], "赵白眼"], [["上", "城"], "上城"], [["宏", "儿"], "宏儿"], [["水", "生"], "水生"], [["，", "其"], "，其"], [["的", "天"], "的天"], [["的", "光"], "的光"], [["。他", "的"], "。他的"], [["鲁迅", "在"], "鲁迅在"], [["时", "代"], "时代"], [["人", "生"], "人生"], [["，", "即"], "，即"], [["先生", "的"], "先生的"], [["有", "人"], "有人"], [["的", "问"], "的问"], [["小", "说"], "小说"], [["年", "的"], "年的"], [["日", "记"], "日记"], [["　　", "本篇"], "　　本篇"], [["　　本篇", "最初"], "　　本篇最初"], [["《新青年", "》"], "《新青年》"], [["号", "。"], "号。"], [["不", "见"], "不见"], [["，", "对"], "，对"], [["在", "那里"], "在那里"], [["有", "什么"], "有什么"], [["，他", "也"], "，他也"], [["很", "不"], "很不"], [["总", "是"], "总是"], [["了", "他"], "了他"], [["奇", "怪"], "奇怪"], [["进", "了"], "进了"], [["想", "到"], "想到"], [["怎么", "会"], "怎么会"], [["，便", "是"], "，便是"], [["—", "1"], "—1"], [["十", "二"], "十二"], [["传", "》"], "传》"], [["不", "但"], "不但"], [["，", "还"], "，还"], [["，", "连"], "，连"], [["本", "家"], "本家"], [["，他", "的"], "，他的"], [["好", "，"], "好，"], [["然", "了。"], "然了。"], [["，大", "约"], "，大约"], [["变", "成"], "变成"], [["出", "去"], "出去"], [["说，“", "你"], "说，“你"], [["头", "上"], "头上"], [["，", "指"], "，指"], [["一九", "一九"], "一九一九"], [["一九一九", "年"], "一九一九年"], [["起身", "，"], "起身，"], [["老", "女人"], "老女人"], [["了", "两"], "了两"], [["接", "着"], "接着"], [["下", "去，"], "下去，"], [["的", "叫"], "的叫"], [["一", "手"], "一手"], [["认", "为"], "认为"], [["早", "经"], "早经"], [["夹", "袄"], "夹袄"], [["没有", "人"], "没有人"], [["他", "。"], "他。"], [["康", "大"], "康大"], [["康大", "叔"], "康大叔"], [["睡", "着"], "睡着"], [["慢慢", "的"], "慢慢的"], [["两", "手"], "两手"], [["跟", "着"], "跟着"], [["模", "样"], "模样"], [["的", "说。"], "的说。"], [["，", "倒"], "，倒"], [["走", "近"], "走近"], [["四", "面"], "四面"], [["一", "口"], "一口"], [["慢慢", "地"], "慢慢地"], [["手", "里"], "手里"], [["鲁", "镇"], "鲁镇"], [["　　", "单四嫂子"], "　　单四嫂子"], [["容", "易"], "容易"], [["对", "面"], "对面"], [["为", "“"], "为“"], [["姓", "赵"], "姓赵"], [["，", "或者"], "，或者"], [["未庄", "人"], "未庄人"], [["未庄", "的"], "未庄的"], [["人", "家"], "人家"], [["舂", "米"], "舂米"], [["忘", "却"], "忘却"], [["的", "神"], "的神"], [["，", "后来"], "，后来"], [["，这", "才"], "，这才"], [["得", "意"], "得意"], [["不", "准"], "不准"], [["赵", "司"], "赵司"], [["赵司", "晨"], "赵司晨"], [["妈妈", "的"], "妈妈的"], [["萝", "卜"], "萝卜"], [["，", "……”"], "，……”"], [["栅", "栏"], "栅栏"], [["不如", "一代"], "不如一代"], [["　　", "七斤嫂"], "　　七斤嫂"], [["龙", "庭"], "龙庭"], [["八", "一"], "八一"], [["八一", "嫂"], "八一嫂"], [["第", "1"], "第1"], [["一个", "人"], "一个人"], [["，", "以"], "，以"], [["后", "，"], "后，"], [["便", "在"], "便在"], [["能", "够"], "能够"], [["，一", "直"], "，一直"], [["的", "《"], "的《"], [["狂", "人"], "狂人"], [["　　本篇最初", "发表于"], "　　本篇最初发表于"], [["清", "代"], "清代"], [["通", "过"], "通过"], [["很", "好"], "很好"], [["着", "嘴"], "着嘴"], [["大", "声"], "大声"], [["认", "识"], "认识"], [["教", "我"], "教我"], [["过", "的"], "过的"], [["说", "道：“"], "说道：“"], [["老", "五"], "老五"], [["佃", "户"], "佃户"], [["便", "都"], "便都"], [["吃", "我"], "吃我"], [["心", "思"], "心思"], [["况", "且"], "况且"], [["时", "常"], "时常"], [["了", "这"], "了这"], [["一", "碗"], "一碗"], [["吃人", "的人"], "吃人的人"], [["不", "肯"], "不肯"], [["其", "实"], "其实"], [["伸", "出"], "伸出"], [["，", "被"], "，被"], [["勇", "气"], "勇气"], [["是", "我"], "是我"], [["几", "天"], "几天"], [["》", "中"], "》中"], [["表", "示"], "表示"], [["。这", "里"], "。这里"], [["语", "出"], "语出"], [["语出", "《"], "语出《"], [["街", "上"], "街上"], [["叫", "“"], "叫“"], [["笑", "着"], "笑着"], [["喜", "欢"], "喜欢"], [["天", "气"], "天气"], [["变", "了"], "变了"], [["脸", "，"], "脸，"], [["睡", "觉"], "睡觉"], [["门", "槛"], "门槛"], [["门", "外"], "门外"], [["回", "过"], "回过"], [["得", "很"], "得很"], [["易", "牙"], "易牙"], [["的", "儿子"], "的儿子"], [["巡", "警"], "巡警"], [["学", "生"], "学生"], [["，", "自己"], "，自己"], [["身", "上"], "身上"], [["　　", "母亲"], "　　母亲"], [["并", "没有"], "并没有"], [["孩", "子，"], "孩子，"], [["的", "响"], "的响"], [["　　", "老栓"], "　　老栓"], [["，", "仿佛"], "，仿佛"], [["远", "远"], "远远"], [["别", "的"], "别的"], [["面", "前，"], "面前，"], [["那", "人"], "那人"], [["出", "来"], "出来"], [["的", "圆"], "的圆"], [["轻", "轻"], "轻轻"], [["胡", "子"], "胡子"], [["，", "要"], "，要"], [["了。", "我"], "了。我"], [["还", "要"], "还要"], [["和", "他"], "和他"], [["说", "："], "说："], [["知道", "他"], "知道他"], [["　　“", "他"], "　　“他"], [["热", "闹"], "热闹"], [["放", "下"], "放下"], [["指", "头"], "指头"], [["一", "看"], "一看"], [["你", "的"], "你的"], [["间", "，"], "间，"], [["明", "天"], "明天"], [["蓝", "皮"], "蓝皮"], [["蓝皮", "阿五"], "蓝皮阿五"], [["柜", "台"], "柜台"], [["岁", "的"], "岁的"], [["在", "地上"], "在地上"], [["不", "少"], "不少"], [["一", "支"], "一支"], [["却", "不"], "却不"], [["站", "着"], "站着"], [["异", "样"], "异样"], [["的", "确"], "的确"], [["x", "t"], "xt"], [["传", "，"], "传，"], [["传", "”"], "传”"], [["并", "无"], "并无"], [["：", "即"], "：即"], [["此", "后"], "此后"], [["提", "起"], "提起"], [["行", "状"], "行状"], [["做", "工"], "做工"], [["尊", "敬"], "尊敬"], [["。", "于是"], "。于是"], [["怒", "目"], "怒目"], [["满", "意"], "满意"], [["胜", "利"], "胜利"], [["这", "回"], "这回"], [["酒店", "里"], "酒店里"], [["！”", "阿q"], "！”阿q"], [["，", "很"], "，很"], [["起来", "了，"], "起来了，"], [["钢", "鞭"], "钢鞭"], [["老", "尼姑"], "老尼姑"], [["黑", "狗"], "黑狗"], [["杀", "头"], "杀头"], [["赵太", "太"], "赵太太"], [["　　“", "那"], "　　“那"], [["盘", "在"], "盘在"], [["官", "僚"], "官僚"], [["把", "总"], "把总"], [["洋", "先生"], "洋先生"], [["　　", "七斤"], "　　七斤"], [["圣", "叹"], "圣叹"], [["，", "为"], "，为"], [["，", "就是"], "，就是"], [["表", "现"], "表现"], [["国", "民"], "国民"], [["进", "行"], "进行"], [["中国", "的"], "中国的"], [["算", "是"], "算是"], [["向", "着"], "向着"], [["文", "章"], "文章"], [["也", "许"], "也许"], [["《", "鲁迅"], "《鲁迅"], [["主", "义"], "主义"], [["长", "的"], "长的"], [["，", "还是"], "，还是"], [["，", "虽"], "，虽"], [["不", "足"], "不足"], [["一九", "一"], "一九一"], [["职", "务"], "职务"], [["，", "听"], "，听"], [["日", "，"], "日，"], [["小", "心"], "小心"], [["前", "面"], "前面"], [["脸", "色"], "脸色"], [["也", "都"], "也都"], [["长", "久"], "长久"], [["，一", "定"], "，一定"], [["　　", "他们"], "　　他们"], [["。", "这一"], "。这一"], [["我", "大哥"], "我大哥"], [["顶", "上"], "顶上"], [["未", "必"], "未必"], [["不", "会"], "不会"], [["前", "天"], "前天"], [["我", "自己"], "我自己"], [["自", "从"], "自从"], [["手", "，"], "手，"], [["究", "竟"], "究竟"], [["，我", "也"], "，我也"], [["写", "着"], "写着"], [["半", "夜"], "半夜"], [["书", "上"], "书上"], [["字", "，"], "字，"], [["眼睛", "，"], "眼睛，"], [["答", "应"], "答应"], [["，", "走"], "，走"], [["，只", "是"], "，只是"], [["暗", "暗"], "暗暗"], [["的", "。”"], "的。”"], [["名", "目"], "名目"], [["一", "片"], "一片"], [["静", "的"], "静的"], [["低", "声"], "低声"], [["一", "步"], "一步"], [["曾", "经"], "曾经"], [["说", "过"], "说过"], [["年", "，"], "年，"], [["时", "的"], "时的"], [["年", "纪"], "年纪"], [["既", "然"], "既然"], [["得", "，"], "得，"], [["呜", "呜"], "呜呜"], [["！", "——"], "！——"], [["东西", "，"], "东西，"], [["样", "子"], "样子"], [["　　“", "没有"], "　　“没有"], [["着", "眼"], "着眼"], [["居", "然"], "居然"], [["静", "，"], "静，"], [["说", "不出"], "说不出"], [["满", "脸"], "满脸"], [["将", "来"], "将来"], [["正", "是"], "正是"], [["走", "了。"], "走了。"], [["屋子", "里"], "屋子里"], [["发", "抖"], "发抖"], [["，", "就"], "，就"], [["十", "一"], "十一"], [["还", "在"], "还在"], [["　　", "【"], "　　【"], [["　　【", "按"], "　　【按"], [["　　【按", "语"], "　　【按语"], [["　　【按语", "】"], "　　【按语】"], [["制", "度"], "制度"], [["了", "二十"], "了二十"], [["字", "。"], "字。"], [["咳", "嗽"], "咳嗽"], [["着", "他的"], "着他的"], [["得", "了"], "得了"], [["步", "，"], "步，"], [["面", "前"], "面前"], [["古", "怪"], "古怪"], [["的", "手"], "的手"], [["；", "一"], "；一"], [["着", "一个"], "着一个"], [["旧", "时"], "旧时"], [["说，“", "这"], "说，“这"], [["中", "，"], "中，"], [["四", "个"], "四个"], [["了。", "这"], "了。这"], [["工", "夫"], "工夫"], [["禁", "不住"], "禁不住"], [["有些", "不"], "有些不"], [["花", "白"], "花白"], [["腰", "间"], "腰间"], [["包", "好"], "包好"], [["；", "但"], "；但"], [["，", "仍然"], "，仍然"], [["奶", "奶"], "奶奶"], [["嘴", "巴"], "嘴巴"], [["靠", "着"], "靠着"], [["　　", "这一"], "　　这一"], [["确", "乎"], "确乎"], [["了，", "但"], "了，但"], [["感", "到"], "感到"], [["。", "单四嫂子"], "。单四嫂子"], [["，", "觉得"], "，觉得"], [["，", "单四嫂子"], "，单四嫂子"], [["了", "“"], "了“"], [["，", "说是"], "，说是"], [["留", "心"], "留心"], [["第", "一个"], "第一个"], [["畜", "生"], "畜生"], [["情", "形"], "情形"], [["身", "边"], "身边"], [["，", "总"], "，总"], [["得", "不"], "得不"], [["使", "他"], "使他"], [["不", "愿意"], "不愿意"], [["茴", "香"], "茴香"], [["茴香", "豆"], "茴香豆"], [["罢", "了。"], "罢了。"], [["有", "几"], "有几"], [["豆", "腐"], "豆腐"], [["关", "于"], "关于"], [["开", "口"], "开口"], [["钱", "。"], "钱。"], [["u", "e"], "ue"], [["ue", "i"], "uei"], [["茂", "才"], "茂才"], [["短", "工"], "短工"], [["这", "话"], "这话"], [["而", "至于"], "而至于"], [["乡下", "人"], "乡下人"], [["，阿q", "便"], "，阿q便"], [["，大", "抵"], "，大抵"], [["怒目", "而"], "怒目而"], [["怒目而", "视"], "怒目而视"], [["闲", "人们"], "闲人们"], [["足", "的"], "足的"], [["现在", "的"], "现在的"], [["说", "出"], "说出"], [["不", "到"], "不到"], [["说：“", "这"], "说：“这"], [["近", "来"], "近来"], [["了", "三"], "了三"], [["发", "生"], "发生"], [["门", "口"], "门口"], [["！", "……”"], "！……”"], [["男", "人"], "男人"], [["可", "恶"], "可恶"], [["晚", "饭"], "晚饭"], [["竹", "杠"], "竹杠"], [["了", "他的"], "了他的"], [["站", "住"], "站住"], [["下", "面"], "下面"], [["，有", "时"], "，有时"], [["便", "将"], "便将"], [["村", "人"], "村人"], [["白", "盔"], "白盔"], [["白盔", "白"], "白盔白"], [["白盔白", "甲"], "白盔白甲"], [["。但", "他"], "。但他"], [["将", "辫子"], "将辫子"], [["将辫子", "盘在"], "将辫子盘在"], [["辛", "亥"], "辛亥"], [["辛亥", "革命"], "辛亥革命"], [["抬", "出"], "抬出"], [["栅栏", "门"], "栅栏门"], [["上", "面"], "上面"], [["。", "孔乙己"], "。孔乙己"], [["乌", "桕"], "乌桕"], [["一代", "不如一代"], "一代不如一代"], [["坐", "了"], "坐了"], [["的", "故乡"], "的故乡"], [["海", "边"], "海边"], [["贝", "壳"], "贝壳"], [["方", "玄"], "方玄"], [["方玄", "绰"], "方玄绰"], [["的天", "空"], "的天空"], [["影", "响"], "影响"], [["深刻", "的"], "深刻的"], [["新", "的"], "新的"], [["鲁迅", "的"], "鲁迅的"], [["如", "果"], "如果"], [["英", "国"], "英国"], [["下", "的"], "下的"], [["至", "今"], "至今"], [["读", "者"], "读者"], [["的", "重"], "的重"], [["原", "因"], "原因"], [["读", "来"], "读来"], [["好", "的"], "好的"], [["艺", "术"], "艺术"], [["阿q", "正传"], "阿q正传"], [["生", "命"], "生命"], [["是", "在"], "是在"], [["月", "《新青年》"], "月《新青年》"], [["月《新青年》", "第"], "月《新青年》第"], [["第", "五"], "第五"], [["消", "息"], "消息"], [["科", "举"], "科举"], [["笑", "，"], "笑，"], [["者", "，"], "者，"], [["研", "究"], "研究"], [["　　", "一"], "　　一"], [["见", "了，"], "见了，"], [["赵", "家的"], "赵家的"], [["，", "何"], "，何"], [["看", "我"], "看我"], [["赵", "贵"], "赵贵"], [["赵贵", "翁"], "赵贵翁"], [["怕", "我"], "怕我"], [["；", "我"], "；我"], [["一", "伙"], "一伙"], [["忍", "不住"], "忍不住"], [["说：“", "你"], "说：“你"], [["告", "诉"], "告诉"], [["统", "治"], "统治"], [["伤", "心"], "伤心"], [["老", "子"], "老子"], [["也", "有"], "也有"], [["，也", "有"], "，也有"], [["嘴", "里"], "嘴里"], [["惊", "，"], "惊，"], [["陈", "老五"], "陈老五"], [["回", "家"], "回家"], [["回", "家，"], "回家，"], [["狼", "子"], "狼子"], [["，", "可以"], "，可以"], [["全", "是"], "全是"], [["吃", "人的"], "吃人的"], [["几", "句"], "几句"], [["清", "楚"], "清楚"], [["如", "何"], "如何"], [["放", "松"], "放松"], [["看", "他"], "看他"], [["了", "好"], "了好"], [["张", "开"], "张开"], [["静", "静的"], "静静的"], [["又", "是"], "又是"], [["，", "想"], "，想"], [["笑", "声"], "笑声"], [["正", "气"], "正气"]]}